/* Generated by Edge Impulse
 *
 * Permission is hereby granted, free of charge, to any person obtaining a copy
 * of this software and associated documentation files (the "Software"), to deal
 * in the Software without restriction, including without limitation the rights
 * to use, copy, modify, merge, publish, distribute, sublicense, and/or sell
 * copies of the Software, and to permit persons to whom the Software is
 * furnished to do so, subject to the following conditions:
 *
 * The above copyright notice and this permission notice shall be included in
 * all copies or substantial portions of the Software.
 *
 * THE SOFTWARE IS PROVIDED "AS IS", WITHOUT WARRANTY OF ANY KIND, EXPRESS OR
 * IMPLIED, INCLUDING BUT NOT LIMITED TO THE WARRANTIES OF MERCHANTABILITY,
 * FITNESS FOR A PARTICULAR PURPOSE AND NONINFRINGEMENT. IN NO EVENT SHALL THE
 * AUTHORS OR COPYRIGHT HOLDERS BE LIABLE FOR ANY CLAIM, DAMAGES OR OTHER
 * LIABILITY, WHETHER IN AN ACTION OF CONTRACT, TORT OR OTHERWISE, ARISING FROM,
 * OUT OF OR IN CONNECTION WITH THE SOFTWARE OR THE USE OR OTHER DEALINGS IN THE
 * SOFTWARE.
 */

#ifndef _EI_CLASSIFIER_TFLITE_TRAINED_H_
#define _EI_CLASSIFIER_TFLITE_TRAINED_H_

#define EI_CLASSIFIER_TFLITE_ARENA_SIZE     5785

#if defined __GNUC__
#define ALIGN(X) __attribute__((aligned(X)))
#elif defined _MSC_VER
#define ALIGN(X) __declspec(align(X))
#elif defined __TASKING__
#define ALIGN(X) __align(X)
#else
#define ALIGN(X)
#endif
ALIGN(16) const unsigned char trained_tflite[] = {
  0x1c, 0x00, 0x00, 0x00, 0x54, 0x46, 0x4c, 0x33, 0x14, 0x00, 0x20, 0x00,
  0x1c, 0x00, 0x18, 0x00, 0x14, 0x00, 0x10, 0x00, 0x0c, 0x00, 0x00, 0x00,
  0x08, 0x00, 0x04, 0x00, 0x14, 0x00, 0x00, 0x00, 0x1c, 0x00, 0x00, 0x00,
  0x8c, 0x00, 0x00, 0x00, 0xbc, 0x00, 0x00, 0x00, 0xd0, 0x07, 0x00, 0x00,
  0xe0, 0x07, 0x00, 0x00, 0xf8, 0x16, 0x00, 0x00, 0x03, 0x00, 0x00, 0x00,
  0x01, 0x00, 0x00, 0x00, 0x10, 0x00, 0x00, 0x00, 0x00, 0x00, 0x0a, 0x00,
  0x10, 0x00, 0x0c, 0x00, 0x08, 0x00, 0x04, 0x00, 0x0a, 0x00, 0x00, 0x00,
  0x0c, 0x00, 0x00, 0x00, 0x1c, 0x00, 0x00, 0x00, 0x3c, 0x00, 0x00, 0x00,
  0x0f, 0x00, 0x00, 0x00, 0x73, 0x65, 0x72, 0x76, 0x69, 0x6e, 0x67, 0x5f,
  0x64, 0x65, 0x66, 0x61, 0x75, 0x6c, 0x74, 0x00, 0x01, 0x00, 0x00, 0x00,
  0x04, 0x00, 0x00, 0x00, 0xc4, 0xff, 0xff, 0xff, 0x16, 0x00, 0x00, 0x00,
  0x04, 0x00, 0x00, 0x00, 0x08, 0x00, 0x00, 0x00, 0x6f, 0x75, 0x74, 0x70,
  0x75, 0x74, 0x5f, 0x30, 0x00, 0x00, 0x00, 0x00, 0x01, 0x00, 0x00, 0x00,
  0x04, 0x00, 0x00, 0x00, 0x0a, 0xf8, 0xff, 0xff, 0x04, 0x00, 0x00, 0x00,
  0x01, 0x00, 0x00, 0x00, 0x78, 0x00, 0x00, 0x00, 0x01, 0x00, 0x00, 0x00,
  0x0c, 0x00, 0x00, 0x00, 0x08, 0x00, 0x0c, 0x00, 0x08, 0x00, 0x04, 0x00,
  0x08, 0x00, 0x00, 0x00, 0x18, 0x00, 0x00, 0x00, 0x04, 0x00, 0x00, 0x00,
  0x13, 0x00, 0x00, 0x00, 0x6d, 0x69, 0x6e, 0x5f, 0x72, 0x75, 0x6e, 0x74,
  0x69, 0x6d, 0x65, 0x5f, 0x76, 0x65, 0x72, 0x73, 0x69, 0x6f, 0x6e, 0x00,
  0x19, 0x00, 0x00, 0x00, 0x10, 0x07, 0x00, 0x00, 0x08, 0x07, 0x00, 0x00,
  0xe8, 0x06, 0x00, 0x00, 0xc8, 0x06, 0x00, 0x00, 0xa8, 0x06, 0x00, 0x00,
  0x88, 0x06, 0x00, 0x00, 0x70, 0x06, 0x00, 0x00, 0x28, 0x05, 0x00, 0x00,
  0xf8, 0x04, 0x00, 0x00, 0x68, 0x03, 0x00, 0x00, 0x18, 0x03, 0x00, 0x00,
  0x98, 0x00, 0x00, 0x00, 0x7c, 0x00, 0x00, 0x00, 0x74, 0x00, 0x00, 0x00,
  0x6c, 0x00, 0x00, 0x00, 0x64, 0x00, 0x00, 0x00, 0x5c, 0x00, 0x00, 0x00,
  0x54, 0x00, 0x00, 0x00, 0x4c, 0x00, 0x00, 0x00, 0x44, 0x00, 0x00, 0x00,
  0x3c, 0x00, 0x00, 0x00, 0x34, 0x00, 0x00, 0x00, 0x2c, 0x00, 0x00, 0x00,
  0x24, 0x00, 0x00, 0x00, 0x04, 0x00, 0x00, 0x00, 0xb6, 0xf8, 0xff, 0xff,
  0x04, 0x00, 0x00, 0x00, 0x10, 0x00, 0x00, 0x00, 0x31, 0x2e, 0x31, 0x34,
  0x2e, 0x30, 0x00, 0x00, 0x00, 0x00, 0x00, 0x00, 0x00, 0x00, 0x00, 0x00,
  0xec, 0xea, 0xff, 0xff, 0xf0, 0xea, 0xff, 0xff, 0xf4, 0xea, 0xff, 0xff,
  0xf8, 0xea, 0xff, 0xff, 0xfc, 0xea, 0xff, 0xff, 0x00, 0xeb, 0xff, 0xff,
  0x04, 0xeb, 0xff, 0xff, 0x08, 0xeb, 0xff, 0xff, 0x0c, 0xeb, 0xff, 0xff,
  0x10, 0xeb, 0xff, 0xff, 0x14, 0xeb, 0xff, 0xff, 0xfe, 0xf8, 0xff, 0xff,
  0x04, 0x00, 0x00, 0x00, 0x0c, 0x00, 0x00, 0x00, 0x91, 0xfd, 0xff, 0xff,
  0x98, 0xff, 0xff, 0xff, 0xe7, 0x01, 0x00, 0x00, 0x16, 0xf9, 0xff, 0xff,
  0x04, 0x00, 0x00, 0x00, 0x70, 0x02, 0x00, 0x00, 0xd8, 0xa5, 0x81, 0x94,
  0xd0, 0xf0, 0x29, 0xef, 0xbe, 0xd0, 0x21, 0x24, 0x05, 0x97, 0x16, 0xf2,
  0xbe, 0xd6, 0x8e, 0x84, 0xce, 0xec, 0xfa, 0x05, 0xc9, 0xd0, 0x02, 0xfd,
  0xf4, 0x99, 0xc6, 0xfd, 0x0f, 0xf0, 0x92, 0xa3, 0xda, 0xe6, 0xe5, 0xff,
  0xaf, 0xb0, 0x24, 0xc7, 0xf5, 0x81, 0x99, 0x18, 0xe5, 0x0b, 0x0b, 0xe4,
  0x05, 0xc5, 0xf1, 0x0d, 0xbc, 0xc2, 0x03, 0xd0, 0xdc, 0x1a, 0xe5, 0xd8,
  0x18, 0x27, 0x02, 0x17, 0x1d, 0xdd, 0xaa, 0xe3, 0xd8, 0xcb, 0xc0, 0xce,
  0xbe, 0x27, 0xd6, 0xfc, 0x16, 0x26, 0x24, 0x10, 0x28, 0xb8, 0x98, 0xf8,
  0xe4, 0xc9, 0xc2, 0xdd, 0xd0, 0x2e, 0xfa, 0xcc, 0xd5, 0x08, 0x31, 0x14,
  0x15, 0xeb, 0xef, 0x12, 0xd1, 0xdc, 0xf0, 0x01, 0xd3, 0x3e, 0x00, 0x02,
  0x0a, 0x16, 0x11, 0x18, 0x13, 0xf3, 0x29, 0x0c, 0xaf, 0xba, 0x1a, 0xe6,
  0xd4, 0x32, 0x0b, 0x05, 0xfd, 0x21, 0x23, 0x03, 0x1a, 0xff, 0x09, 0x0b,
  0xd9, 0xd0, 0x36, 0xf9, 0x10, 0x24, 0xd4, 0x0c, 0x03, 0x1f, 0x06, 0x23,
  0x27, 0xf2, 0x07, 0x06, 0x24, 0xe5, 0x17, 0x01, 0xde, 0x23, 0xd0, 0x2e,
  0x00, 0x25, 0x24, 0x04, 0x11, 0x17, 0x0f, 0xf6, 0x10, 0xeb, 0x04, 0x27,
  0xfd, 0x22, 0xea, 0xea, 0xf0, 0x0d, 0x02, 0x13, 0x24, 0x0a, 0x12, 0xee,
  0x08, 0xcd, 0x10, 0x09, 0xfb, 0x26, 0xea, 0xf1, 0xed, 0x30, 0x11, 0x1a,
  0x0d, 0xfc, 0x42, 0xff, 0x06, 0xd1, 0x35, 0x08, 0xd9, 0x0d, 0xef, 0x0d,
  0x30, 0xf6, 0x18, 0x0b, 0x02, 0xd1, 0x00, 0x06, 0x0c, 0x0f, 0x07, 0xe7,
  0x27, 0xe5, 0xef, 0x1c, 0x06, 0x16, 0x0e, 0x1e, 0x0d, 0xf2, 0x0b, 0xea,
  0xe8, 0x15, 0xfc, 0xf7, 0x28, 0xe1, 0xfc, 0x1b, 0x16, 0xf8, 0x22, 0x1d,
  0xf7, 0x03, 0x09, 0x0d, 0xf6, 0x05, 0x0b, 0xf3, 0xfc, 0xe3, 0xfc, 0x20,
  0x18, 0xc8, 0xe0, 0x14, 0xce, 0xe7, 0x13, 0x02, 0xf0, 0x1c, 0x0e, 0xd7,
  0x18, 0xbd, 0xf9, 0x1c, 0x22, 0xfa, 0x23, 0x03, 0xec, 0x02, 0x04, 0x18,
  0xed, 0x06, 0x21, 0xdd, 0x2b, 0xd0, 0xec, 0x1b, 0x31, 0xf7, 0xe7, 0xed,
  0xe4, 0xef, 0x2c, 0x13, 0xf1, 0x09, 0x2b, 0xf3, 0x2d, 0xd0, 0xee, 0x38,
  0x34, 0xfa, 0xff, 0x06, 0xfb, 0xed, 0x1d, 0x12, 0x10, 0x23, 0x00, 0x02,
  0x26, 0xc1, 0xf9, 0x47, 0xe4, 0xe4, 0xeb, 0x02, 0xf8, 0x03, 0xf0, 0x11,
  0x00, 0x39, 0xfd, 0x03, 0x20, 0xd9, 0x14, 0x22, 0x27, 0xcd, 0xff, 0x15,
  0xe6, 0x07, 0xf3, 0x09, 0x09, 0xfb, 0x0e, 0xdb, 0x1c, 0xce, 0xe5, 0x02,
  0x0b, 0xcc, 0xd5, 0x01, 0xcd, 0xe2, 0x22, 0x07, 0xfa, 0x17, 0x01, 0x1e,
  0x21, 0xdd, 0xe6, 0x3f, 0x05, 0xe2, 0x0a, 0xff, 0xc4, 0xda, 0x08, 0xfb,
  0xf8, 0x12, 0x18, 0xd3, 0x28, 0xbf, 0x00, 0x23, 0x13, 0xb5, 0xf9, 0xea,
  0xdb, 0xe9, 0xfb, 0x09, 0xd4, 0x17, 0x05, 0xc8, 0x14, 0xbe, 0xdb, 0x30,
  0x00, 0xd6, 0xe1, 0xd4, 0xc7, 0xe7, 0xe9, 0x34, 0xd7, 0xf0, 0x12, 0xfa,
  0x1d, 0xb9, 0xf5, 0x0d, 0xd3, 0x21, 0x32, 0x32, 0x44, 0x31, 0xe8, 0x16,
  0x2d, 0xfe, 0xc9, 0xfc, 0xe3, 0x3e, 0xfc, 0xde, 0xde, 0x31, 0x30, 0x1e,
  0x33, 0x1a, 0xe8, 0x0b, 0x1d, 0x18, 0xe1, 0x1a, 0xf9, 0x31, 0x2d, 0xf1,
  0xdc, 0x32, 0x3a, 0x08, 0x27, 0x2f, 0xfe, 0xfa, 0x24, 0x17, 0xe8, 0x33,
  0xe5, 0x30, 0x30, 0xf5, 0xde, 0x07, 0x10, 0x07, 0x08, 0x2b, 0x01, 0xf2,
  0x23, 0x24, 0xe4, 0x13, 0xf6, 0x12, 0x1f, 0x02, 0xe4, 0x21, 0xe5, 0xed,
  0x0e, 0x3d, 0x25, 0xff, 0x14, 0x15, 0x1b, 0x25, 0x10, 0xe7, 0x00, 0xfc,
  0xc7, 0x05, 0x0f, 0xf2, 0x19, 0x30, 0x10, 0x13, 0x23, 0x04, 0x0f, 0x33,
  0xfe, 0xfd, 0x38, 0xdc, 0xd9, 0x11, 0xfd, 0xf7, 0x03, 0x2a, 0x04, 0xfb,
  0x1a, 0x00, 0xe3, 0x16, 0x16, 0x12, 0xea, 0xeb, 0xe6, 0x12, 0xe4, 0xf1,
  0x12, 0x1a, 0x08, 0x02, 0xff, 0x08, 0xe9, 0x25, 0xff, 0x0c, 0xf7, 0xd3,
  0xd0, 0x07, 0xe9, 0xec, 0x0c, 0x15, 0xec, 0x17, 0x23, 0x25, 0x06, 0x1f,
  0x02, 0xef, 0x19, 0x06, 0xc9, 0x05, 0x0b, 0xf3, 0x15, 0x22, 0xfc, 0x12,
  0x25, 0x0b, 0xe6, 0x0b, 0xf3, 0x01, 0x22, 0xd6, 0xdc, 0x18, 0xfd, 0xf4,
  0xf6, 0x22, 0x0d, 0xf3, 0x11, 0x00, 0xf6, 0x29, 0x15, 0x03, 0x42, 0xe7,
  0xf6, 0xf6, 0xf1, 0x02, 0x14, 0x1b, 0xdb, 0xf3, 0x17, 0x16, 0xdc, 0x18,
  0xf9, 0xfe, 0x19, 0xda, 0x1b, 0xf8, 0xf8, 0xfa, 0xfe, 0x18, 0x06, 0xe5,
  0x09, 0x25, 0xd7, 0xfb, 0xea, 0x07, 0x21, 0xe7, 0x92, 0xfb, 0xff, 0xff,
  0x04, 0x00, 0x00, 0x00, 0x40, 0x00, 0x00, 0x00, 0x16, 0xfd, 0xff, 0xff,
  0x38, 0x01, 0x00, 0x00, 0x7e, 0x02, 0x00, 0x00, 0x5b, 0xfc, 0xff, 0xff,
  0x16, 0xfd, 0xff, 0xff, 0x2a, 0xfd, 0xff, 0xff, 0x99, 0xf9, 0xff, 0xff,
  0xb0, 0xfc, 0xff, 0xff, 0x0b, 0xfe, 0xff, 0xff, 0x4c, 0xfd, 0xff, 0xff,
  0x12, 0xfe, 0xff, 0xff, 0xae, 0xf7, 0xff, 0xff, 0x2c, 0xfb, 0xff, 0xff,
  0x9a, 0x02, 0x00, 0x00, 0x8e, 0xfc, 0xff, 0xff, 0xb7, 0xfa, 0xff, 0xff,
  0xde, 0xfb, 0xff, 0xff, 0x04, 0x00, 0x00, 0x00, 0x80, 0x01, 0x00, 0x00,
  0xf1, 0xd7, 0xc9, 0xe7, 0xcd, 0xee, 0x7f, 0xef, 0x6c, 0xdb, 0xbe, 0xe7,
  0xbf, 0xf6, 0x16, 0xed, 0x1b, 0xcc, 0xf7, 0x11, 0xee, 0x7c, 0x71, 0xeb,
  0xd1, 0xa1, 0xe1, 0xf9, 0xd6, 0xc3, 0xbe, 0x12, 0xc4, 0xa5, 0x35, 0x7f,
  0x1b, 0xec, 0xce, 0x46, 0x0a, 0xf7, 0x46, 0x55, 0x5c, 0xef, 0xb1, 0x11,
  0xfc, 0xcd, 0xec, 0xb0, 0x1e, 0x24, 0xdb, 0x81, 0x05, 0xe9, 0x0d, 0x66,
  0x07, 0x02, 0xe7, 0xe0, 0x13, 0xe9, 0xfc, 0xfb, 0x22, 0x03, 0xf5, 0xe6,
  0x21, 0xc0, 0xe5, 0x17, 0x96, 0x2c, 0xdc, 0x67, 0x25, 0x96, 0x06, 0x7f,
  0xe4, 0x4f, 0x38, 0xe7, 0x5a, 0xc1, 0x25, 0xe0, 0x02, 0x39, 0x33, 0xf3,
  0xdf, 0xad, 0x32, 0x42, 0x2b, 0xbb, 0xae, 0x1a, 0xc5, 0xa7, 0x14, 0xee,
  0x2c, 0xdd, 0xc2, 0x2f, 0x05, 0x90, 0x44, 0x7f, 0x17, 0xe6, 0xd0, 0xfd,
  0xfd, 0xc8, 0xf4, 0xe8, 0x7f, 0xf3, 0xe2, 0x6f, 0xe0, 0xcd, 0xb7, 0xec,
  0x1a, 0xfa, 0xc8, 0xf7, 0xb5, 0x03, 0x07, 0xf8, 0x40, 0xdf, 0xdd, 0x38,
  0x6c, 0x0d, 0xdf, 0xc2, 0x23, 0xd1, 0x11, 0x34, 0x7f, 0x1c, 0x06, 0xdd,
  0xfe, 0x27, 0xff, 0xef, 0xe3, 0x37, 0xb4, 0xeb, 0x1d, 0x88, 0x45, 0xce,
  0xbe, 0xa6, 0x0f, 0xaa, 0xe1, 0x45, 0x31, 0xf0, 0x06, 0xa3, 0xb5, 0xe1,
  0x36, 0xfa, 0x30, 0x91, 0x81, 0xd1, 0xbd, 0xf0, 0xf7, 0xe4, 0xc7, 0x0f,
  0xe3, 0xc2, 0x4d, 0xc8, 0xcd, 0xdb, 0xe7, 0x4d, 0xf1, 0xcd, 0xfa, 0xe3,
  0x33, 0x03, 0xd2, 0x42, 0xd2, 0xb5, 0x7f, 0xe6, 0x16, 0xd7, 0xf2, 0x21,
  0xf4, 0xcf, 0x23, 0xb0, 0x27, 0x7f, 0xad, 0xd7, 0xed, 0x11, 0x7d, 0x94,
  0xf1, 0x53, 0x41, 0x19, 0xb8, 0xfb, 0x53, 0xbe, 0x2b, 0x07, 0x17, 0x31,
  0x4a, 0x10, 0xfa, 0xe4, 0xf8, 0x81, 0x19, 0xfc, 0x67, 0x0b, 0xe9, 0xdb,
  0x29, 0xe2, 0x43, 0xd7, 0x11, 0xf5, 0xce, 0xd1, 0xe7, 0xdc, 0x75, 0xdc,
  0xd7, 0xe5, 0xff, 0x01, 0xda, 0x8b, 0xdd, 0xf5, 0xdc, 0x7f, 0x5d, 0xd8,
  0x3f, 0x84, 0xe6, 0x51, 0xe9, 0x51, 0xa8, 0x3d, 0x64, 0xd1, 0xd2, 0x45,
  0x57, 0x04, 0xe4, 0xdf, 0xd6, 0x64, 0x72, 0xd5, 0xea, 0xec, 0x0a, 0xe3,
  0xf5, 0xad, 0x7f, 0x02, 0xf7, 0x2f, 0xe5, 0xd5, 0xbc, 0x47, 0x5b, 0x2f,
  0xee, 0xe8, 0xf0, 0x7f, 0xce, 0xbb, 0xcc, 0xd7, 0xe9, 0xe2, 0x3d, 0xc0,
  0x54, 0xcb, 0xc4, 0xa5, 0xf2, 0x9d, 0xea, 0x72, 0x16, 0xf4, 0xd8, 0xb5,
  0xc1, 0xf5, 0x5d, 0xed, 0xe1, 0x0c, 0xa5, 0x81, 0xea, 0x39, 0xc7, 0xfc,
  0x69, 0xfa, 0xcf, 0xa6, 0xcf, 0x4c, 0x1c, 0xf0, 0x25, 0xea, 0xcc, 0xcd,
  0x69, 0xe7, 0xfd, 0xc9, 0xd6, 0xb3, 0x24, 0xea, 0xe8, 0xeb, 0xc9, 0xd5,
  0xfe, 0x66, 0x7f, 0xed, 0x5e, 0xd8, 0xd8, 0xe6, 0xd6, 0x37, 0xff, 0xf2,
  0x6a, 0xfd, 0xff, 0xff, 0x04, 0x00, 0x00, 0x00, 0x20, 0x00, 0x00, 0x00,
  0x28, 0xf4, 0xff, 0xff, 0x87, 0xf5, 0xff, 0xff, 0x64, 0xf4, 0xff, 0xff,
  0x9a, 0xef, 0xff, 0xff, 0x83, 0xf2, 0xff, 0xff, 0xaa, 0xf6, 0xff, 0xff,
  0x2c, 0xf8, 0xff, 0xff, 0x06, 0xf1, 0xff, 0xff, 0x96, 0xfd, 0xff, 0xff,
  0x04, 0x00, 0x00, 0x00, 0x38, 0x01, 0x00, 0x00, 0xd9, 0x02, 0x29, 0xe2,
  0xfe, 0xb7, 0x07, 0x21, 0x0c, 0xc9, 0xf0, 0xaa, 0xdb, 0xff, 0xbc, 0xc1,
  0xb4, 0x11, 0x4d, 0xf0, 0x92, 0xbf, 0xc6, 0x0a, 0x3e, 0xe3, 0x81, 0xde,
  0x13, 0xc4, 0xb0, 0x98, 0xcc, 0x06, 0x1f, 0xfa, 0xe5, 0xfa, 0x06, 0xa2,
  0xef, 0x92, 0x9f, 0x2a, 0x4e, 0xbe, 0x86, 0xe4, 0x44, 0x21, 0xec, 0xdf,
  0xfa, 0x1b, 0x37, 0xf9, 0x3b, 0x7f, 0xfd, 0xf4, 0xf5, 0x1f, 0xc1, 0x38,
  0x2e, 0xe3, 0xe2, 0x87, 0x28, 0x2d, 0x4d, 0x04, 0xae, 0x01, 0x33, 0xf9,
  0xf2, 0xf8, 0x13, 0xf4, 0xd3, 0x48, 0xa1, 0x1f, 0xd5, 0x7b, 0x12, 0x85,
  0xfe, 0xf9, 0xec, 0x12, 0xdf, 0x38, 0x4e, 0xad, 0xf9, 0x26, 0xec, 0x3b,
  0x81, 0x29, 0xc9, 0x1e, 0xd9, 0x23, 0xd2, 0x17, 0xcb, 0xcf, 0x31, 0x1a,
  0xea, 0x9e, 0x2e, 0xba, 0x11, 0xe4, 0x7a, 0x8c, 0x3e, 0xf6, 0xd9, 0xfb,
  0x3e, 0x82, 0x38, 0x9d, 0x2d, 0x18, 0xc8, 0x68, 0xa8, 0x29, 0x15, 0xed,
  0x08, 0x3c, 0xaa, 0x33, 0x81, 0x35, 0xe7, 0xc1, 0x4b, 0x97, 0x06, 0xf9,
  0xdc, 0xeb, 0x3f, 0x8b, 0x3a, 0xac, 0x2c, 0xd9, 0xb8, 0x0f, 0x4c, 0xcb,
  0x6e, 0xbe, 0x30, 0x05, 0xa1, 0x4f, 0xf5, 0xf3, 0x54, 0xe7, 0xf7, 0x10,
  0xbe, 0x50, 0xca, 0x47, 0x4e, 0xa0, 0x26, 0xd0, 0x1d, 0x35, 0x04, 0xd2,
  0x46, 0xbe, 0x7f, 0xa7, 0x14, 0x40, 0xa4, 0x23, 0xdf, 0xf6, 0x2a, 0x7f,
  0x51, 0xf8, 0x68, 0x2b, 0x04, 0xc3, 0x04, 0xd4, 0xc6, 0xc7, 0x09, 0x32,
  0x04, 0x14, 0x3d, 0x43, 0x63, 0x39, 0x6d, 0x56, 0x1f, 0x65, 0x4c, 0x05,
  0xeb, 0x77, 0xcd, 0xc7, 0x20, 0x20, 0x1e, 0xdf, 0xf4, 0x08, 0xef, 0x05,
  0xf2, 0xc9, 0xa9, 0xc0, 0xd3, 0xf6, 0x0c, 0x02, 0x0b, 0xfd, 0x0f, 0x03,
  0x0c, 0xf0, 0xfa, 0x7f, 0x4a, 0x37, 0xea, 0xd6, 0xda, 0xf9, 0xe9, 0xe5,
  0xe8, 0xe1, 0x00, 0xfe, 0xbb, 0xe5, 0xed, 0xf4, 0xf6, 0x08, 0xfd, 0xf4,
  0xf8, 0xfa, 0xfe, 0x0b, 0x08, 0xf1, 0x26, 0x0a, 0x21, 0xeb, 0xca, 0xd1,
  0x29, 0xcf, 0x1e, 0x0d, 0x9f, 0x42, 0x24, 0x26, 0x4e, 0x23, 0xd9, 0xd5,
  0xce, 0xf3, 0xc0, 0x08, 0x2f, 0xb8, 0x2d, 0xb5, 0x16, 0x69, 0x4f, 0x8f,
  0x81, 0x5f, 0xa9, 0xba, 0x1a, 0x3b, 0xac, 0x72, 0xda, 0xfe, 0xff, 0xff,
  0x04, 0x00, 0x00, 0x00, 0x08, 0x00, 0x00, 0x00, 0xff, 0xff, 0xff, 0xff,
  0xd0, 0x00, 0x00, 0x00, 0xee, 0xfe, 0xff, 0xff, 0x04, 0x00, 0x00, 0x00,
  0x10, 0x00, 0x00, 0x00, 0x01, 0x00, 0x00, 0x00, 0x19, 0x00, 0x00, 0x00,
  0x01, 0x00, 0x00, 0x00, 0x10, 0x00, 0x00, 0x00, 0x0a, 0xff, 0xff, 0xff,
  0x04, 0x00, 0x00, 0x00, 0x10, 0x00, 0x00, 0x00, 0x01, 0x00, 0x00, 0x00,
  0x01, 0x00, 0x00, 0x00, 0x19, 0x00, 0x00, 0x00, 0x08, 0x00, 0x00, 0x00,
  0x26, 0xff, 0xff, 0xff, 0x04, 0x00, 0x00, 0x00, 0x10, 0x00, 0x00, 0x00,
  0x01, 0x00, 0x00, 0x00, 0x31, 0x00, 0x00, 0x00, 0x01, 0x00, 0x00, 0x00,
  0x08, 0x00, 0x00, 0x00, 0x42, 0xff, 0xff, 0xff, 0x04, 0x00, 0x00, 0x00,
  0x10, 0x00, 0x00, 0x00, 0x01, 0x00, 0x00, 0x00, 0x01, 0x00, 0x00, 0x00,
  0x31, 0x00, 0x00, 0x00, 0x0d, 0x00, 0x00, 0x00, 0x78, 0xf1, 0xff, 0xff,
  0x7c, 0xf1, 0xff, 0xff, 0x0f, 0x00, 0x00, 0x00, 0x4d, 0x4c, 0x49, 0x52,
  0x20, 0x43, 0x6f, 0x6e, 0x76, 0x65, 0x72, 0x74, 0x65, 0x64, 0x2e, 0x00,
  0x01, 0x00, 0x00, 0x00, 0x14, 0x00, 0x00, 0x00, 0x00, 0x00, 0x0e, 0x00,
  0x18, 0x00, 0x14, 0x00, 0x10, 0x00, 0x0c, 0x00, 0x08, 0x00, 0x04, 0x00,
  0x0e, 0x00, 0x00, 0x00, 0x14, 0x00, 0x00, 0x00, 0x1c, 0x00, 0x00, 0x00,
  0x84, 0x02, 0x00, 0x00, 0x88, 0x02, 0x00, 0x00, 0x8c, 0x02, 0x00, 0x00,
  0x04, 0x00, 0x00, 0x00, 0x6d, 0x61, 0x69, 0x6e, 0x00, 0x00, 0x00, 0x00,
  0x0b, 0x00, 0x00, 0x00, 0x48, 0x02, 0x00, 0x00, 0xec, 0x01, 0x00, 0x00,
  0xb8, 0x01, 0x00, 0x00, 0x68, 0x01, 0x00, 0x00, 0x44, 0x01, 0x00, 0x00,
  0x00, 0x01, 0x00, 0x00, 0xdc, 0x00, 0x00, 0x00, 0x9c, 0x00, 0x00, 0x00,
  0x78, 0x00, 0x00, 0x00, 0x40, 0x00, 0x00, 0x00, 0x04, 0x00, 0x00, 0x00,
  0x4a, 0xfe, 0xff, 0xff, 0x1c, 0x00, 0x00, 0x00, 0x00, 0x00, 0x00, 0x09,
  0x1c, 0x00, 0x00, 0x00, 0x20, 0x00, 0x00, 0x00, 0x04, 0x00, 0x00, 0x00,
  0x00, 0x00, 0x06, 0x00, 0x08, 0x00, 0x04, 0x00, 0x06, 0x00, 0x00, 0x00,
  0x00, 0x00, 0x80, 0x3f, 0x01, 0x00, 0x00, 0x00, 0x16, 0x00, 0x00, 0x00,
  0x01, 0x00, 0x00, 0x00, 0x15, 0x00, 0x00, 0x00, 0x82, 0xfe, 0xff, 0xff,
  0x14, 0x00, 0x00, 0x00, 0x00, 0x00, 0x00, 0x08, 0x10, 0x00, 0x00, 0x00,
  0x14, 0x00, 0x00, 0x00, 0x03, 0x00, 0x00, 0x00, 0x50, 0xf2, 0xff, 0xff,
  0x01, 0x00, 0x00, 0x00, 0x15, 0x00, 0x00, 0x00, 0x03, 0x00, 0x00, 0x00,
  0x14, 0x00, 0x00, 0x00, 0x0a, 0x00, 0x00, 0x00, 0x0b, 0x00, 0x00, 0x00,
  0x5a, 0xfe, 0xff, 0xff, 0x08, 0x00, 0x00, 0x00, 0x0c, 0x00, 0x00, 0x00,
  0x01, 0x00, 0x00, 0x00, 0x14, 0x00, 0x00, 0x00, 0x02, 0x00, 0x00, 0x00,
  0x13, 0x00, 0x00, 0x00, 0x05, 0x00, 0x00, 0x00, 0xd6, 0xfe, 0xff, 0xff,
  0x14, 0x00, 0x00, 0x00, 0x00, 0x00, 0x00, 0x05, 0x20, 0x00, 0x00, 0x00,
  0x24, 0x00, 0x00, 0x00, 0x02, 0x00, 0x00, 0x00, 0x42, 0xff, 0xff, 0xff,
  0x02, 0x00, 0x00, 0x00, 0x01, 0x00, 0x00, 0x00, 0x02, 0x00, 0x00, 0x00,
  0x01, 0x00, 0x00, 0x00, 0x01, 0x00, 0x00, 0x00, 0x13, 0x00, 0x00, 0x00,
  0x01, 0x00, 0x00, 0x00, 0x12, 0x00, 0x00, 0x00, 0xb6, 0xfe, 0xff, 0xff,
  0x08, 0x00, 0x00, 0x00, 0x0c, 0x00, 0x00, 0x00, 0x01, 0x00, 0x00, 0x00,
  0x12, 0x00, 0x00, 0x00, 0x02, 0x00, 0x00, 0x00, 0x11, 0x00, 0x00, 0x00,
  0x04, 0x00, 0x00, 0x00, 0x32, 0xff, 0xff, 0xff, 0x14, 0x00, 0x00, 0x00,
  0x00, 0x00, 0x00, 0x01, 0x1c, 0x00, 0x00, 0x00, 0x20, 0x00, 0x00, 0x00,
  0x01, 0x00, 0x00, 0x00, 0x24, 0xff, 0xff, 0xff, 0x00, 0x00, 0x00, 0x01,
  0x01, 0x00, 0x00, 0x00, 0x01, 0x00, 0x00, 0x00, 0x01, 0x00, 0x00, 0x00,
  0x11, 0x00, 0x00, 0x00, 0x03, 0x00, 0x00, 0x00, 0x10, 0x00, 0x00, 0x00,
  0x08, 0x00, 0x00, 0x00, 0x09, 0x00, 0x00, 0x00, 0x16, 0xff, 0xff, 0xff,
  0x08, 0x00, 0x00, 0x00, 0x0c, 0x00, 0x00, 0x00, 0x01, 0x00, 0x00, 0x00,
  0x10, 0x00, 0x00, 0x00, 0x02, 0x00, 0x00, 0x00, 0x0f, 0x00, 0x00, 0x00,
  0x03, 0x00, 0x00, 0x00, 0x92, 0xff, 0xff, 0xff, 0x24, 0x00, 0x00, 0x00,
  0x00, 0x00, 0x00, 0x05, 0x30, 0x00, 0x00, 0x00, 0x34, 0x00, 0x00, 0x00,
  0x02, 0x00, 0x00, 0x00, 0x00, 0x00, 0x0e, 0x00, 0x14, 0x00, 0x00, 0x00,
  0x10, 0x00, 0x0c, 0x00, 0x08, 0x00, 0x04, 0x00, 0x0e, 0x00, 0x00, 0x00,
  0x02, 0x00, 0x00, 0x00, 0x01, 0x00, 0x00, 0x00, 0x02, 0x00, 0x00, 0x00,
  0x01, 0x00, 0x00, 0x00, 0x01, 0x00, 0x00, 0x00, 0x0f, 0x00, 0x00, 0x00,
  0x01, 0x00, 0x00, 0x00, 0x0e, 0x00, 0x00, 0x00, 0x82, 0xff, 0xff, 0xff,
  0x08, 0x00, 0x00, 0x00, 0x0c, 0x00, 0x00, 0x00, 0x01, 0x00, 0x00, 0x00,
  0x0e, 0x00, 0x00, 0x00, 0x02, 0x00, 0x00, 0x00, 0x0d, 0x00, 0x00, 0x00,
  0x02, 0x00, 0x00, 0x00, 0x00, 0x00, 0x0e, 0x00, 0x18, 0x00, 0x14, 0x00,
  0x10, 0x00, 0x0c, 0x00, 0x0b, 0x00, 0x04, 0x00, 0x0e, 0x00, 0x00, 0x00,
  0x20, 0x00, 0x00, 0x00, 0x00, 0x00, 0x00, 0x01, 0x28, 0x00, 0x00, 0x00,
  0x2c, 0x00, 0x00, 0x00, 0x01, 0x00, 0x00, 0x00, 0x0c, 0x00, 0x10, 0x00,
  0x00, 0x00, 0x0c, 0x00, 0x08, 0x00, 0x07, 0x00, 0x0c, 0x00, 0x00, 0x00,
  0x00, 0x00, 0x00, 0x01, 0x01, 0x00, 0x00, 0x00, 0x01, 0x00, 0x00, 0x00,
  0x01, 0x00, 0x00, 0x00, 0x0d, 0x00, 0x00, 0x00, 0x03, 0x00, 0x00, 0x00,
  0x0c, 0x00, 0x00, 0x00, 0x06, 0x00, 0x00, 0x00, 0x07, 0x00, 0x00, 0x00,
  0x00, 0x00, 0x0a, 0x00, 0x0c, 0x00, 0x00, 0x00, 0x08, 0x00, 0x04, 0x00,
  0x0a, 0x00, 0x00, 0x00, 0x08, 0x00, 0x00, 0x00, 0x0c, 0x00, 0x00, 0x00,
  0x01, 0x00, 0x00, 0x00, 0x0c, 0x00, 0x00, 0x00, 0x02, 0x00, 0x00, 0x00,
  0x00, 0x00, 0x00, 0x00, 0x01, 0x00, 0x00, 0x00, 0x01, 0x00, 0x00, 0x00,
  0x16, 0x00, 0x00, 0x00, 0x01, 0x00, 0x00, 0x00, 0x00, 0x00, 0x00, 0x00,
  0x17, 0x00, 0x00, 0x00, 0xf8, 0x0b, 0x00, 0x00, 0x94, 0x0b, 0x00, 0x00,
  0x44, 0x0b, 0x00, 0x00, 0xf0, 0x0a, 0x00, 0x00, 0x9c, 0x0a, 0x00, 0x00,
  0x54, 0x0a, 0x00, 0x00, 0x8c, 0x09, 0x00, 0x00, 0xe0, 0x08, 0x00, 0x00,
  0xbc, 0x07, 0x00, 0x00, 0xb0, 0x06, 0x00, 0x00, 0x44, 0x06, 0x00, 0x00,
  0xf0, 0x05, 0x00, 0x00, 0x74, 0x05, 0x00, 0x00, 0xa8, 0x04, 0x00, 0x00,
  0x2c, 0x04, 0x00, 0x00, 0xb0, 0x03, 0x00, 0x00, 0x34, 0x03, 0x00, 0x00,
  0x58, 0x02, 0x00, 0x00, 0xdc, 0x01, 0x00, 0x00, 0x60, 0x01, 0x00, 0x00,
  0xf4, 0x00, 0x00, 0x00, 0x70, 0x00, 0x00, 0x00, 0x04, 0x00, 0x00, 0x00,
  0x72, 0xf4, 0xff, 0xff, 0x14, 0x00, 0x00, 0x00, 0x34, 0x00, 0x00, 0x00,
  0x17, 0x00, 0x00, 0x00, 0x00, 0x00, 0x00, 0x09, 0x48, 0x00, 0x00, 0x00,
  0x64, 0xf4, 0xff, 0xff, 0x08, 0x00, 0x00, 0x00, 0x14, 0x00, 0x00, 0x00,
  0x01, 0x00, 0x00, 0x00, 0x80, 0xff, 0xff, 0xff, 0xff, 0xff, 0xff, 0xff,
  0x00, 0x00, 0x00, 0x00, 0x01, 0x00, 0x00, 0x00, 0x00, 0x00, 0x80, 0x3b,
  0x19, 0x00, 0x00, 0x00, 0x53, 0x74, 0x61, 0x74, 0x65, 0x66, 0x75, 0x6c,
  0x50, 0x61, 0x72, 0x74, 0x69, 0x74, 0x69, 0x6f, 0x6e, 0x65, 0x64, 0x43,
  0x61, 0x6c, 0x6c, 0x3a, 0x30, 0x00, 0x00, 0x00, 0x02, 0x00, 0x00, 0x00,
  0x01, 0x00, 0x00, 0x00, 0x03, 0x00, 0x00, 0x00, 0xda, 0xf4, 0xff, 0xff,
  0x14, 0x00, 0x00, 0x00, 0x34, 0x00, 0x00, 0x00, 0x16, 0x00, 0x00, 0x00,
  0x00, 0x00, 0x00, 0x09, 0x60, 0x00, 0x00, 0x00, 0xcc, 0xf4, 0xff, 0xff,
  0x08, 0x00, 0x00, 0x00, 0x14, 0x00, 0x00, 0x00, 0x01, 0x00, 0x00, 0x00,
  0x0b, 0x00, 0x00, 0x00, 0x00, 0x00, 0x00, 0x00, 0x00, 0x00, 0x00, 0x00,
  0x01, 0x00, 0x00, 0x00, 0xe2, 0x24, 0x2b, 0x3e, 0x32, 0x00, 0x00, 0x00,
  0x73, 0x65, 0x71, 0x75, 0x65, 0x6e, 0x74, 0x69, 0x61, 0x6c, 0x2f, 0x79,
  0x5f, 0x70, 0x72, 0x65, 0x64, 0x2f, 0x4d, 0x61, 0x74, 0x4d, 0x75, 0x6c,
  0x3b, 0x73, 0x65, 0x71, 0x75, 0x65, 0x6e, 0x74, 0x69, 0x61, 0x6c, 0x2f,
  0x79, 0x5f, 0x70, 0x72, 0x65, 0x64, 0x2f, 0x42, 0x69, 0x61, 0x73, 0x41,
  0x64, 0x64, 0x00, 0x00, 0x02, 0x00, 0x00, 0x00, 0x01, 0x00, 0x00, 0x00,
  0x03, 0x00, 0x00, 0x00, 0x5a, 0xf5, 0xff, 0xff, 0x14, 0x00, 0x00, 0x00,
  0x34, 0x00, 0x00, 0x00, 0x15, 0x00, 0x00, 0x00, 0x00, 0x00, 0x00, 0x09,
  0x48, 0x00, 0x00, 0x00, 0x4c, 0xf5, 0xff, 0xff, 0x08, 0x00, 0x00, 0x00,
  0x14, 0x00, 0x00, 0x00, 0x01, 0x00, 0x00, 0x00, 0x80, 0xff, 0xff, 0xff,
  0xff, 0xff, 0xff, 0xff, 0x00, 0x00, 0x00, 0x00, 0x01, 0x00, 0x00, 0x00,
  0xf9, 0xa6, 0xf7, 0x3c, 0x1a, 0x00, 0x00, 0x00, 0x73, 0x65, 0x71, 0x75,
  0x65, 0x6e, 0x74, 0x69, 0x61, 0x6c, 0x2f, 0x66, 0x6c, 0x61, 0x74, 0x74,
  0x65, 0x6e, 0x2f, 0x52, 0x65, 0x73, 0x68, 0x61, 0x70, 0x65, 0x00, 0x00,
  0x02, 0x00, 0x00, 0x00, 0x01, 0x00, 0x00, 0x00, 0xd0, 0x00, 0x00, 0x00,
  0xc2, 0xf5, 0xff, 0xff, 0x14, 0x00, 0x00, 0x00, 0x34, 0x00, 0x00, 0x00,
  0x14, 0x00, 0x00, 0x00, 0x00, 0x00, 0x00, 0x09, 0x50, 0x00, 0x00, 0x00,
  0xb4, 0xf5, 0xff, 0xff, 0x08, 0x00, 0x00, 0x00, 0x14, 0x00, 0x00, 0x00,
  0x01, 0x00, 0x00, 0x00, 0x80, 0xff, 0xff, 0xff, 0xff, 0xff, 0xff, 0xff,
  0x00, 0x00, 0x00, 0x00, 0x01, 0x00, 0x00, 0x00, 0xf9, 0xa6, 0xf7, 0x3c,
  0x22, 0x00, 0x00, 0x00, 0x73, 0x65, 0x71, 0x75, 0x65, 0x6e, 0x74, 0x69,
  0x61, 0x6c, 0x2f, 0x6d, 0x61, 0x78, 0x5f, 0x70, 0x6f, 0x6f, 0x6c, 0x69,
  0x6e, 0x67, 0x31, 0x64, 0x5f, 0x31, 0x2f, 0x4d, 0x61, 0x78, 0x50, 0x6f,
  0x6f, 0x6c, 0x00, 0x00, 0x04, 0x00, 0x00, 0x00, 0x01, 0x00, 0x00, 0x00,
  0x0d, 0x00, 0x00, 0x00, 0x01, 0x00, 0x00, 0x00, 0x10, 0x00, 0x00, 0x00,
  0x3a, 0xf6, 0xff, 0xff, 0x14, 0x00, 0x00, 0x00, 0x30, 0x00, 0x00, 0x00,
  0x13, 0x00, 0x00, 0x00, 0x00, 0x00, 0x00, 0x09, 0x50, 0x00, 0x00, 0x00,
  0x2c, 0xf6, 0xff, 0xff, 0x08, 0x00, 0x00, 0x00, 0x10, 0x00, 0x00, 0x00,
  0x01, 0x00, 0x00, 0x00, 0x80, 0xff, 0xff, 0xff, 0xff, 0xff, 0xff, 0xff,
  0x01, 0x00, 0x00, 0x00, 0xf9, 0xa6, 0xf7, 0x3c, 0x26, 0x00, 0x00, 0x00,
  0x73, 0x65, 0x71, 0x75, 0x65, 0x6e, 0x74, 0x69, 0x61, 0x6c, 0x2f, 0x6d,
  0x61, 0x78, 0x5f, 0x70, 0x6f, 0x6f, 0x6c, 0x69, 0x6e, 0x67, 0x31, 0x64,
  0x5f, 0x31, 0x2f, 0x45, 0x78, 0x70, 0x61, 0x6e, 0x64, 0x44, 0x69, 0x6d,
  0x73, 0x31, 0x00, 0x00, 0x04, 0x00, 0x00, 0x00, 0x01, 0x00, 0x00, 0x00,
  0x19, 0x00, 0x00, 0x00, 0x01, 0x00, 0x00, 0x00, 0x10, 0x00, 0x00, 0x00,
  0xb2, 0xf6, 0xff, 0xff, 0x14, 0x00, 0x00, 0x00, 0x34, 0x00, 0x00, 0x00,
  0x12, 0x00, 0x00, 0x00, 0x00, 0x00, 0x00, 0x09, 0xb0, 0x00, 0x00, 0x00,
  0xa4, 0xf6, 0xff, 0xff, 0x08, 0x00, 0x00, 0x00, 0x14, 0x00, 0x00, 0x00,
  0x01, 0x00, 0x00, 0x00, 0x80, 0xff, 0xff, 0xff, 0xff, 0xff, 0xff, 0xff,
  0x00, 0x00, 0x00, 0x00, 0x01, 0x00, 0x00, 0x00, 0xf9, 0xa6, 0xf7, 0x3c,
  0x80, 0x00, 0x00, 0x00, 0x73, 0x65, 0x71, 0x75, 0x65, 0x6e, 0x74, 0x69,
  0x61, 0x6c, 0x2f, 0x63, 0x6f, 0x6e, 0x76, 0x31, 0x64, 0x5f, 0x31, 0x2f,
  0x52, 0x65, 0x6c, 0x75, 0x3b, 0x73, 0x65, 0x71, 0x75, 0x65, 0x6e, 0x74,
  0x69, 0x61, 0x6c, 0x2f, 0x63, 0x6f, 0x6e, 0x76, 0x31, 0x64, 0x5f, 0x31,
  0x2f, 0x42, 0x69, 0x61, 0x73, 0x41, 0x64, 0x64, 0x3b, 0x73, 0x65, 0x71,
  0x75, 0x65, 0x6e, 0x74, 0x69, 0x61, 0x6c, 0x2f, 0x63, 0x6f, 0x6e, 0x76,
  0x31, 0x64, 0x5f, 0x31, 0x2f, 0x43, 0x6f, 0x6e, 0x76, 0x31, 0x44, 0x2f,
  0x53, 0x71, 0x75, 0x65, 0x65, 0x7a, 0x65, 0x3b, 0x63, 0x6f, 0x6e, 0x76,
  0x31, 0x64, 0x5f, 0x31, 0x2f, 0x62, 0x69, 0x61, 0x73, 0x3b, 0x73, 0x65,
  0x71, 0x75, 0x65, 0x6e, 0x74, 0x69, 0x61, 0x6c, 0x2f, 0x63, 0x6f, 0x6e,
  0x76, 0x31, 0x64, 0x5f, 0x31, 0x2f, 0x43, 0x6f, 0x6e, 0x76, 0x31, 0x44,
  0x00, 0x00, 0x00, 0x00, 0x04, 0x00, 0x00, 0x00, 0x01, 0x00, 0x00, 0x00,
  0x01, 0x00, 0x00, 0x00, 0x19, 0x00, 0x00, 0x00, 0x10, 0x00, 0x00, 0x00,
  0x8a, 0xf7, 0xff, 0xff, 0x14, 0x00, 0x00, 0x00, 0x30, 0x00, 0x00, 0x00,
  0x11, 0x00, 0x00, 0x00, 0x00, 0x00, 0x00, 0x09, 0x50, 0x00, 0x00, 0x00,
  0x7c, 0xf7, 0xff, 0xff, 0x08, 0x00, 0x00, 0x00, 0x10, 0x00, 0x00, 0x00,
  0x01, 0x00, 0x00, 0x00, 0x80, 0xff, 0xff, 0xff, 0xff, 0xff, 0xff, 0xff,
  0x01, 0x00, 0x00, 0x00, 0x86, 0xc0, 0xfc, 0x3c, 0x26, 0x00, 0x00, 0x00,
  0x73, 0x65, 0x71, 0x75, 0x65, 0x6e, 0x74, 0x69, 0x61, 0x6c, 0x2f, 0x63,
  0x6f, 0x6e, 0x76, 0x31, 0x64, 0x5f, 0x31, 0x2f, 0x43, 0x6f, 0x6e, 0x76,
  0x31, 0x44, 0x2f, 0x45, 0x78, 0x70, 0x61, 0x6e, 0x64, 0x44, 0x69, 0x6d,
  0x73, 0x31, 0x00, 0x00, 0x04, 0x00, 0x00, 0x00, 0x01, 0x00, 0x00, 0x00,
  0x01, 0x00, 0x00, 0x00, 0x19, 0x00, 0x00, 0x00, 0x08, 0x00, 0x00, 0x00,
  0x02, 0xf8, 0xff, 0xff, 0x14, 0x00, 0x00, 0x00, 0x34, 0x00, 0x00, 0x00,
  0x10, 0x00, 0x00, 0x00, 0x00, 0x00, 0x00, 0x09, 0x50, 0x00, 0x00, 0x00,
  0xf4, 0xf7, 0xff, 0xff, 0x08, 0x00, 0x00, 0x00, 0x14, 0x00, 0x00, 0x00,
  0x01, 0x00, 0x00, 0x00, 0x80, 0xff, 0xff, 0xff, 0xff, 0xff, 0xff, 0xff,
  0x00, 0x00, 0x00, 0x00, 0x01, 0x00, 0x00, 0x00, 0x86, 0xc0, 0xfc, 0x3c,
  0x20, 0x00, 0x00, 0x00, 0x73, 0x65, 0x71, 0x75, 0x65, 0x6e, 0x74, 0x69,
  0x61, 0x6c, 0x2f, 0x6d, 0x61, 0x78, 0x5f, 0x70, 0x6f, 0x6f, 0x6c, 0x69,
  0x6e, 0x67, 0x31, 0x64, 0x2f, 0x4d, 0x61, 0x78, 0x50, 0x6f, 0x6f, 0x6c,
  0x00, 0x00, 0x00, 0x00, 0x04, 0x00, 0x00, 0x00, 0x01, 0x00, 0x00, 0x00,
  0x19, 0x00, 0x00, 0x00, 0x01, 0x00, 0x00, 0x00, 0x08, 0x00, 0x00, 0x00,
  0x7a, 0xf8, 0xff, 0xff, 0x14, 0x00, 0x00, 0x00, 0x30, 0x00, 0x00, 0x00,
  0x0f, 0x00, 0x00, 0x00, 0x00, 0x00, 0x00, 0x09, 0x50, 0x00, 0x00, 0x00,
  0x6c, 0xf8, 0xff, 0xff, 0x08, 0x00, 0x00, 0x00, 0x10, 0x00, 0x00, 0x00,
  0x01, 0x00, 0x00, 0x00, 0x80, 0xff, 0xff, 0xff, 0xff, 0xff, 0xff, 0xff,
  0x01, 0x00, 0x00, 0x00, 0x86, 0xc0, 0xfc, 0x3c, 0x24, 0x00, 0x00, 0x00,
  0x73, 0x65, 0x71, 0x75, 0x65, 0x6e, 0x74, 0x69, 0x61, 0x6c, 0x2f, 0x6d,
  0x61, 0x78, 0x5f, 0x70, 0x6f, 0x6f, 0x6c, 0x69, 0x6e, 0x67, 0x31, 0x64,
  0x2f, 0x45, 0x78, 0x70, 0x61, 0x6e, 0x64, 0x44, 0x69, 0x6d, 0x73, 0x31,
  0x00, 0x00, 0x00, 0x00, 0x04, 0x00, 0x00, 0x00, 0x01, 0x00, 0x00, 0x00,
  0x31, 0x00, 0x00, 0x00, 0x01, 0x00, 0x00, 0x00, 0x08, 0x00, 0x00, 0x00,
  0xf2, 0xf8, 0xff, 0xff, 0x14, 0x00, 0x00, 0x00, 0x30, 0x00, 0x00, 0x00,
  0x0e, 0x00, 0x00, 0x00, 0x00, 0x00, 0x00, 0x09, 0xa0, 0x00, 0x00, 0x00,
  0xe4, 0xf8, 0xff, 0xff, 0x08, 0x00, 0x00, 0x00, 0x10, 0x00, 0x00, 0x00,
  0x01, 0x00, 0x00, 0x00, 0x80, 0xff, 0xff, 0xff, 0xff, 0xff, 0xff, 0xff,
  0x01, 0x00, 0x00, 0x00, 0x86, 0xc0, 0xfc, 0x3c, 0x76, 0x00, 0x00, 0x00,
  0x73, 0x65, 0x71, 0x75, 0x65, 0x6e, 0x74, 0x69, 0x61, 0x6c, 0x2f, 0x63,
  0x6f, 0x6e, 0x76, 0x31, 0x64, 0x2f, 0x52, 0x65, 0x6c, 0x75, 0x3b, 0x73,
  0x65, 0x71, 0x75, 0x65, 0x6e, 0x74, 0x69, 0x61, 0x6c, 0x2f, 0x63, 0x6f,
  0x6e, 0x76, 0x31, 0x64, 0x2f, 0x42, 0x69, 0x61, 0x73, 0x41, 0x64, 0x64,
  0x3b, 0x73, 0x65, 0x71, 0x75, 0x65, 0x6e, 0x74, 0x69, 0x61, 0x6c, 0x2f,
  0x63, 0x6f, 0x6e, 0x76, 0x31, 0x64, 0x2f, 0x43, 0x6f, 0x6e, 0x76, 0x31,
  0x44, 0x2f, 0x53, 0x71, 0x75, 0x65, 0x65, 0x7a, 0x65, 0x3b, 0x63, 0x6f,
  0x6e, 0x76, 0x31, 0x64, 0x2f, 0x62, 0x69, 0x61, 0x73, 0x3b, 0x73, 0x65,
  0x71, 0x75, 0x65, 0x6e, 0x74, 0x69, 0x61, 0x6c, 0x2f, 0x63, 0x6f, 0x6e,
  0x76, 0x31, 0x64, 0x2f, 0x43, 0x6f, 0x6e, 0x76, 0x31, 0x44, 0x00, 0x00,
  0x04, 0x00, 0x00, 0x00, 0x01, 0x00, 0x00, 0x00, 0x01, 0x00, 0x00, 0x00,
  0x31, 0x00, 0x00, 0x00, 0x08, 0x00, 0x00, 0x00, 0xba, 0xf9, 0xff, 0xff,
  0x14, 0x00, 0x00, 0x00, 0x30, 0x00, 0x00, 0x00, 0x0d, 0x00, 0x00, 0x00,
  0x00, 0x00, 0x00, 0x09, 0x50, 0x00, 0x00, 0x00, 0xac, 0xf9, 0xff, 0xff,
  0x08, 0x00, 0x00, 0x00, 0x10, 0x00, 0x00, 0x00, 0x01, 0x00, 0x00, 0x00,
  0xf6, 0xff, 0xff, 0xff, 0xff, 0xff, 0xff, 0xff, 0x01, 0x00, 0x00, 0x00,
  0xcb, 0x25, 0x23, 0x3d, 0x24, 0x00, 0x00, 0x00, 0x73, 0x65, 0x71, 0x75,
  0x65, 0x6e, 0x74, 0x69, 0x61, 0x6c, 0x2f, 0x63, 0x6f, 0x6e, 0x76, 0x31,
  0x64, 0x2f, 0x43, 0x6f, 0x6e, 0x76, 0x31, 0x44, 0x2f, 0x45, 0x78, 0x70,
  0x61, 0x6e, 0x64, 0x44, 0x69, 0x6d, 0x73, 0x31, 0x00, 0x00, 0x00, 0x00,
  0x04, 0x00, 0x00, 0x00, 0x01, 0x00, 0x00, 0x00, 0x01, 0x00, 0x00, 0x00,
  0x31, 0x00, 0x00, 0x00, 0x0d, 0x00, 0x00, 0x00, 0x32, 0xfa, 0xff, 0xff,
  0x14, 0x00, 0x00, 0x00, 0x30, 0x00, 0x00, 0x00, 0x0c, 0x00, 0x00, 0x00,
  0x00, 0x00, 0x00, 0x02, 0x34, 0x00, 0x00, 0x00, 0x24, 0xfa, 0xff, 0xff,
  0x08, 0x00, 0x00, 0x00, 0x10, 0x00, 0x00, 0x00, 0x01, 0x00, 0x00, 0x00,
  0x00, 0x00, 0x00, 0x00, 0x00, 0x00, 0x00, 0x00, 0x01, 0x00, 0x00, 0x00,
  0x38, 0xd6, 0x37, 0x39, 0x0b, 0x00, 0x00, 0x00, 0x79, 0x5f, 0x70, 0x72,
  0x65, 0x64, 0x2f, 0x62, 0x69, 0x61, 0x73, 0x00, 0x01, 0x00, 0x00, 0x00,
  0x03, 0x00, 0x00, 0x00, 0x82, 0xfa, 0xff, 0xff, 0x14, 0x00, 0x00, 0x00,
  0x34, 0x00, 0x00, 0x00, 0x0b, 0x00, 0x00, 0x00, 0x00, 0x00, 0x00, 0x09,
  0x48, 0x00, 0x00, 0x00, 0x74, 0xfa, 0xff, 0xff, 0x08, 0x00, 0x00, 0x00,
  0x14, 0x00, 0x00, 0x00, 0x01, 0x00, 0x00, 0x00, 0x00, 0x00, 0x00, 0x00,
  0x00, 0x00, 0x00, 0x00, 0x00, 0x00, 0x00, 0x00, 0x01, 0x00, 0x00, 0x00,
  0x93, 0x08, 0xbe, 0x3b, 0x18, 0x00, 0x00, 0x00, 0x73, 0x65, 0x71, 0x75,
  0x65, 0x6e, 0x74, 0x69, 0x61, 0x6c, 0x2f, 0x79, 0x5f, 0x70, 0x72, 0x65,
  0x64, 0x2f, 0x4d, 0x61, 0x74, 0x4d, 0x75, 0x6c, 0x00, 0x00, 0x00, 0x00,
  0x02, 0x00, 0x00, 0x00, 0x03, 0x00, 0x00, 0x00, 0xd0, 0x00, 0x00, 0x00,
  0xea, 0xfa, 0xff, 0xff, 0x14, 0x00, 0x00, 0x00, 0xe4, 0x00, 0x00, 0x00,
  0x0a, 0x00, 0x00, 0x00, 0x00, 0x00, 0x00, 0x02, 0xec, 0x00, 0x00, 0x00,
  0xdc, 0xfa, 0xff, 0xff, 0x08, 0x00, 0x00, 0x00, 0x88, 0x00, 0x00, 0x00,
  0x10, 0x00, 0x00, 0x00, 0x00, 0x00, 0x00, 0x00, 0x00, 0x00, 0x00, 0x00,
  0x00, 0x00, 0x00, 0x00, 0x00, 0x00, 0x00, 0x00, 0x00, 0x00, 0x00, 0x00,
  0x00, 0x00, 0x00, 0x00, 0x00, 0x00, 0x00, 0x00, 0x00, 0x00, 0x00, 0x00,
  0x00, 0x00, 0x00, 0x00, 0x00, 0x00, 0x00, 0x00, 0x00, 0x00, 0x00, 0x00,
  0x00, 0x00, 0x00, 0x00, 0x00, 0x00, 0x00, 0x00, 0x00, 0x00, 0x00, 0x00,
  0x00, 0x00, 0x00, 0x00, 0x00, 0x00, 0x00, 0x00, 0x00, 0x00, 0x00, 0x00,
  0x00, 0x00, 0x00, 0x00, 0x00, 0x00, 0x00, 0x00, 0x00, 0x00, 0x00, 0x00,
  0x00, 0x00, 0x00, 0x00, 0x00, 0x00, 0x00, 0x00, 0x00, 0x00, 0x00, 0x00,
  0x00, 0x00, 0x00, 0x00, 0x00, 0x00, 0x00, 0x00, 0x00, 0x00, 0x00, 0x00,
  0x00, 0x00, 0x00, 0x00, 0x00, 0x00, 0x00, 0x00, 0x00, 0x00, 0x00, 0x00,
  0x00, 0x00, 0x00, 0x00, 0x00, 0x00, 0x00, 0x00, 0x00, 0x00, 0x00, 0x00,
  0x10, 0x00, 0x00, 0x00, 0xf8, 0x8e, 0x07, 0x39, 0x4f, 0x45, 0xf7, 0x38,
  0x10, 0x7c, 0x41, 0x39, 0xee, 0xec, 0xcb, 0x38, 0xe8, 0x9c, 0x0b, 0x39,
  0xd6, 0xd2, 0x1b, 0x39, 0xfc, 0x4a, 0xf3, 0x38, 0x62, 0xe9, 0xd9, 0x38,
  0xe6, 0xdb, 0x19, 0x39, 0xa4, 0x15, 0xf5, 0x38, 0x32, 0x0c, 0x0d, 0x39,
  0x3e, 0xd7, 0xef, 0x38, 0xdd, 0x87, 0xeb, 0x38, 0xb2, 0x9f, 0xf7, 0x38,
  0xe5, 0xaf, 0x12, 0x39, 0x95, 0x4c, 0x01, 0x39, 0x0d, 0x00, 0x00, 0x00,
  0x63, 0x6f, 0x6e, 0x76, 0x31, 0x64, 0x5f, 0x31, 0x2f, 0x62, 0x69, 0x61,
  0x73, 0x00, 0x00, 0x00, 0x01, 0x00, 0x00, 0x00, 0x10, 0x00, 0x00, 0x00,
  0xf2, 0xfb, 0xff, 0xff, 0x14, 0x00, 0x00, 0x00, 0xe4, 0x00, 0x00, 0x00,
  0x09, 0x00, 0x00, 0x00, 0x00, 0x00, 0x00, 0x09, 0xf8, 0x00, 0x00, 0x00,
  0xe4, 0xfb, 0xff, 0xff, 0x08, 0x00, 0x00, 0x00, 0x88, 0x00, 0x00, 0x00,
  0x10, 0x00, 0x00, 0x00, 0x00, 0x00, 0x00, 0x00, 0x00, 0x00, 0x00, 0x00,
  0x00, 0x00, 0x00, 0x00, 0x00, 0x00, 0x00, 0x00, 0x00, 0x00, 0x00, 0x00,
  0x00, 0x00, 0x00, 0x00, 0x00, 0x00, 0x00, 0x00, 0x00, 0x00, 0x00, 0x00,
  0x00, 0x00, 0x00, 0x00, 0x00, 0x00, 0x00, 0x00, 0x00, 0x00, 0x00, 0x00,
  0x00, 0x00, 0x00, 0x00, 0x00, 0x00, 0x00, 0x00, 0x00, 0x00, 0x00, 0x00,
  0x00, 0x00, 0x00, 0x00, 0x00, 0x00, 0x00, 0x00, 0x00, 0x00, 0x00, 0x00,
  0x00, 0x00, 0x00, 0x00, 0x00, 0x00, 0x00, 0x00, 0x00, 0x00, 0x00, 0x00,
  0x00, 0x00, 0x00, 0x00, 0x00, 0x00, 0x00, 0x00, 0x00, 0x00, 0x00, 0x00,
  0x00, 0x00, 0x00, 0x00, 0x00, 0x00, 0x00, 0x00, 0x00, 0x00, 0x00, 0x00,
  0x00, 0x00, 0x00, 0x00, 0x00, 0x00, 0x00, 0x00, 0x00, 0x00, 0x00, 0x00,
  0x00, 0x00, 0x00, 0x00, 0x00, 0x00, 0x00, 0x00, 0x00, 0x00, 0x00, 0x00,
  0x10, 0x00, 0x00, 0x00, 0xea, 0x4c, 0x89, 0x3b, 0xc1, 0x72, 0x7a, 0x3b,
  0x91, 0xf8, 0xc3, 0x3b, 0xc8, 0x8b, 0x4e, 0x3b, 0x31, 0x68, 0x8d, 0x3b,
  0x73, 0xd3, 0x9d, 0x3b, 0x58, 0x6b, 0x76, 0x3b, 0x3f, 0xb6, 0x5c, 0x3b,
  0x0c, 0xd6, 0x9b, 0x3b, 0xe5, 0x3b, 0x78, 0x3b, 0x33, 0xdc, 0x8e, 0x3b,
  0x3f, 0xec, 0x72, 0x3b, 0xb0, 0x8e, 0x6e, 0x3b, 0x4d, 0xce, 0x7a, 0x3b,
  0x73, 0x92, 0x94, 0x3b, 0xf0, 0xf5, 0x82, 0x3b, 0x1a, 0x00, 0x00, 0x00,
  0x73, 0x65, 0x71, 0x75, 0x65, 0x6e, 0x74, 0x69, 0x61, 0x6c, 0x2f, 0x63,
  0x6f, 0x6e, 0x76, 0x31, 0x64, 0x5f, 0x31, 0x2f, 0x43, 0x6f, 0x6e, 0x76,
  0x31, 0x44, 0x00, 0x00, 0x04, 0x00, 0x00, 0x00, 0x10, 0x00, 0x00, 0x00,
  0x01, 0x00, 0x00, 0x00, 0x03, 0x00, 0x00, 0x00, 0x08, 0x00, 0x00, 0x00,
  0x12, 0xfd, 0xff, 0xff, 0x14, 0x00, 0x00, 0x00, 0x88, 0x00, 0x00, 0x00,
  0x08, 0x00, 0x00, 0x00, 0x00, 0x00, 0x00, 0x02, 0x8c, 0x00, 0x00, 0x00,
  0x04, 0xfd, 0xff, 0xff, 0x08, 0x00, 0x00, 0x00, 0x4c, 0x00, 0x00, 0x00,
  0x08, 0x00, 0x00, 0x00, 0x00, 0x00, 0x00, 0x00, 0x00, 0x00, 0x00, 0x00,
  0x00, 0x00, 0x00, 0x00, 0x00, 0x00, 0x00, 0x00, 0x00, 0x00, 0x00, 0x00,
  0x00, 0x00, 0x00, 0x00, 0x00, 0x00, 0x00, 0x00, 0x00, 0x00, 0x00, 0x00,
  0x00, 0x00, 0x00, 0x00, 0x00, 0x00, 0x00, 0x00, 0x00, 0x00, 0x00, 0x00,
  0x00, 0x00, 0x00, 0x00, 0x00, 0x00, 0x00, 0x00, 0x00, 0x00, 0x00, 0x00,
  0x00, 0x00, 0x00, 0x00, 0x00, 0x00, 0x00, 0x00, 0x00, 0x00, 0x00, 0x00,
  0x08, 0x00, 0x00, 0x00, 0x9e, 0xe9, 0x38, 0x39, 0x76, 0xbd, 0x20, 0x39,
  0xb7, 0xc5, 0x31, 0x39, 0xfb, 0x1d, 0x22, 0x39, 0xa3, 0xf4, 0x1b, 0x39,
  0x63, 0x23, 0x21, 0x39, 0x79, 0xd1, 0x98, 0x39, 0x44, 0x2e, 0x1b, 0x39,
  0x0b, 0x00, 0x00, 0x00, 0x63, 0x6f, 0x6e, 0x76, 0x31, 0x64, 0x2f, 0x62,
  0x69, 0x61, 0x73, 0x00, 0x01, 0x00, 0x00, 0x00, 0x08, 0x00, 0x00, 0x00,
  0xba, 0xfd, 0xff, 0xff, 0x14, 0x00, 0x00, 0x00, 0x88, 0x00, 0x00, 0x00,
  0x07, 0x00, 0x00, 0x00, 0x00, 0x00, 0x00, 0x09, 0x9c, 0x00, 0x00, 0x00,
  0xac, 0xfd, 0xff, 0xff, 0x08, 0x00, 0x00, 0x00, 0x4c, 0x00, 0x00, 0x00,
  0x08, 0x00, 0x00, 0x00, 0x00, 0x00, 0x00, 0x00, 0x00, 0x00, 0x00, 0x00,
  0x00, 0x00, 0x00, 0x00, 0x00, 0x00, 0x00, 0x00, 0x00, 0x00, 0x00, 0x00,
  0x00, 0x00, 0x00, 0x00, 0x00, 0x00, 0x00, 0x00, 0x00, 0x00, 0x00, 0x00,
  0x00, 0x00, 0x00, 0x00, 0x00, 0x00, 0x00, 0x00, 0x00, 0x00, 0x00, 0x00,
  0x00, 0x00, 0x00, 0x00, 0x00, 0x00, 0x00, 0x00, 0x00, 0x00, 0x00, 0x00,
  0x00, 0x00, 0x00, 0x00, 0x00, 0x00, 0x00, 0x00, 0x00, 0x00, 0x00, 0x00,
  0x08, 0x00, 0x00, 0x00, 0x76, 0x13, 0x91, 0x3b, 0xe5, 0x38, 0x7c, 0x3b,
  0x5a, 0x79, 0x8b, 0x3b, 0x0b, 0x62, 0x7e, 0x3b, 0xfc, 0xb6, 0x74, 0x3b,
  0xd4, 0xd8, 0x7c, 0x3b, 0xb7, 0xca, 0xef, 0x3b, 0xb7, 0x7f, 0x73, 0x3b,
  0x18, 0x00, 0x00, 0x00, 0x73, 0x65, 0x71, 0x75, 0x65, 0x6e, 0x74, 0x69,
  0x61, 0x6c, 0x2f, 0x63, 0x6f, 0x6e, 0x76, 0x31, 0x64, 0x2f, 0x43, 0x6f,
  0x6e, 0x76, 0x31, 0x44, 0x00, 0x00, 0x00, 0x00, 0x04, 0x00, 0x00, 0x00,
  0x08, 0x00, 0x00, 0x00, 0x01, 0x00, 0x00, 0x00, 0x03, 0x00, 0x00, 0x00,
  0x0d, 0x00, 0x00, 0x00, 0x7e, 0xfe, 0xff, 0xff, 0x14, 0x00, 0x00, 0x00,
  0x14, 0x00, 0x00, 0x00, 0x06, 0x00, 0x00, 0x00, 0x00, 0x00, 0x00, 0x02,
  0x28, 0x00, 0x00, 0x00, 0xd0, 0xfe, 0xff, 0xff, 0x18, 0x00, 0x00, 0x00,
  0x73, 0x65, 0x71, 0x75, 0x65, 0x6e, 0x74, 0x69, 0x61, 0x6c, 0x2f, 0x66,
  0x6c, 0x61, 0x74, 0x74, 0x65, 0x6e, 0x2f, 0x43, 0x6f, 0x6e, 0x73, 0x74,
  0x00, 0x00, 0x00, 0x00, 0x01, 0x00, 0x00, 0x00, 0x02, 0x00, 0x00, 0x00,
  0xc2, 0xfe, 0xff, 0xff, 0x14, 0x00, 0x00, 0x00, 0x14, 0x00, 0x00, 0x00,
  0x05, 0x00, 0x00, 0x00, 0x00, 0x00, 0x00, 0x02, 0x34, 0x00, 0x00, 0x00,
  0x14, 0xff, 0xff, 0xff, 0x25, 0x00, 0x00, 0x00, 0x73, 0x65, 0x71, 0x75,
  0x65, 0x6e, 0x74, 0x69, 0x61, 0x6c, 0x2f, 0x6d, 0x61, 0x78, 0x5f, 0x70,
  0x6f, 0x6f, 0x6c, 0x69, 0x6e, 0x67, 0x31, 0x64, 0x5f, 0x31, 0x2f, 0x45,
  0x78, 0x70, 0x61, 0x6e, 0x64, 0x44, 0x69, 0x6d, 0x73, 0x00, 0x00, 0x00,
  0x01, 0x00, 0x00, 0x00, 0x04, 0x00, 0x00, 0x00, 0x12, 0xff, 0xff, 0xff,
  0x14, 0x00, 0x00, 0x00, 0x14, 0x00, 0x00, 0x00, 0x04, 0x00, 0x00, 0x00,
  0x00, 0x00, 0x00, 0x02, 0x34, 0x00, 0x00, 0x00, 0x64, 0xff, 0xff, 0xff,
  0x25, 0x00, 0x00, 0x00, 0x73, 0x65, 0x71, 0x75, 0x65, 0x6e, 0x74, 0x69,
  0x61, 0x6c, 0x2f, 0x63, 0x6f, 0x6e, 0x76, 0x31, 0x64, 0x5f, 0x31, 0x2f,
  0x43, 0x6f, 0x6e, 0x76, 0x31, 0x44, 0x2f, 0x45, 0x78, 0x70, 0x61, 0x6e,
  0x64, 0x44, 0x69, 0x6d, 0x73, 0x00, 0x00, 0x00, 0x01, 0x00, 0x00, 0x00,
  0x04, 0x00, 0x00, 0x00, 0x62, 0xff, 0xff, 0xff, 0x14, 0x00, 0x00, 0x00,
  0x14, 0x00, 0x00, 0x00, 0x03, 0x00, 0x00, 0x00, 0x00, 0x00, 0x00, 0x02,
  0x30, 0x00, 0x00, 0x00, 0xb4, 0xff, 0xff, 0xff, 0x23, 0x00, 0x00, 0x00,
  0x73, 0x65, 0x71, 0x75, 0x65, 0x6e, 0x74, 0x69, 0x61, 0x6c, 0x2f, 0x6d,
  0x61, 0x78, 0x5f, 0x70, 0x6f, 0x6f, 0x6c, 0x69, 0x6e, 0x67, 0x31, 0x64,
  0x2f, 0x45, 0x78, 0x70, 0x61, 0x6e, 0x64, 0x44, 0x69, 0x6d, 0x73, 0x00,
  0x01, 0x00, 0x00, 0x00, 0x04, 0x00, 0x00, 0x00, 0xae, 0xff, 0xff, 0xff,
  0x18, 0x00, 0x00, 0x00, 0x18, 0x00, 0x00, 0x00, 0x02, 0x00, 0x00, 0x00,
  0x00, 0x00, 0x00, 0x02, 0x34, 0x00, 0x00, 0x00, 0x04, 0x00, 0x04, 0x00,
  0x04, 0x00, 0x00, 0x00, 0x23, 0x00, 0x00, 0x00, 0x73, 0x65, 0x71, 0x75,
  0x65, 0x6e, 0x74, 0x69, 0x61, 0x6c, 0x2f, 0x63, 0x6f, 0x6e, 0x76, 0x31,
  0x64, 0x2f, 0x43, 0x6f, 0x6e, 0x76, 0x31, 0x44, 0x2f, 0x45, 0x78, 0x70,
  0x61, 0x6e, 0x64, 0x44, 0x69, 0x6d, 0x73, 0x00, 0x01, 0x00, 0x00, 0x00,
  0x04, 0x00, 0x00, 0x00, 0x00, 0x00, 0x0e, 0x00, 0x18, 0x00, 0x14, 0x00,
  0x13, 0x00, 0x0c, 0x00, 0x08, 0x00, 0x04, 0x00, 0x0e, 0x00, 0x00, 0x00,
  0x20, 0x00, 0x00, 0x00, 0x3c, 0x00, 0x00, 0x00, 0x01, 0x00, 0x00, 0x00,
  0x00, 0x00, 0x00, 0x09, 0x48, 0x00, 0x00, 0x00, 0x0c, 0x00, 0x0c, 0x00,
  0x00, 0x00, 0x00, 0x00, 0x08, 0x00, 0x04, 0x00, 0x0c, 0x00, 0x00, 0x00,
  0x08, 0x00, 0x00, 0x00, 0x10, 0x00, 0x00, 0x00, 0x01, 0x00, 0x00, 0x00,
  0xf6, 0xff, 0xff, 0xff, 0xff, 0xff, 0xff, 0xff, 0x01, 0x00, 0x00, 0x00,
  0xcb, 0x25, 0x23, 0x3d, 0x13, 0x00, 0x00, 0x00, 0x73, 0x65, 0x72, 0x76,
  0x69, 0x6e, 0x67, 0x5f, 0x64, 0x65, 0x66, 0x61, 0x75, 0x6c, 0x74, 0x5f,
  0x78, 0x3a, 0x30, 0x00, 0x02, 0x00, 0x00, 0x00, 0x01, 0x00, 0x00, 0x00,
  0x7d, 0x02, 0x00, 0x00, 0x05, 0x00, 0x00, 0x00, 0x6c, 0x00, 0x00, 0x00,
  0x4c, 0x00, 0x00, 0x00, 0x2c, 0x00, 0x00, 0x00, 0x18, 0x00, 0x00, 0x00,
  0x04, 0x00, 0x00, 0x00, 0xd0, 0xff, 0xff, 0xff, 0x19, 0x00, 0x00, 0x00,
  0x02, 0x00, 0x00, 0x00, 0x00, 0x00, 0x00, 0x19, 0xe0, 0xff, 0xff, 0xff,
  0x09, 0x00, 0x00, 0x00, 0x04, 0x00, 0x00, 0x00, 0x00, 0x00, 0x00, 0x09,
  0xf0, 0xff, 0xff, 0xff, 0x11, 0x00, 0x00, 0x00, 0x02, 0x00, 0x00, 0x00,
  0x00, 0x00, 0x00, 0x11, 0x0c, 0x00, 0x10, 0x00, 0x0f, 0x00, 0x00, 0x00,
  0x08, 0x00, 0x04, 0x00, 0x0c, 0x00, 0x00, 0x00, 0x03, 0x00, 0x00, 0x00,
  0x03, 0x00, 0x00, 0x00, 0x00, 0x00, 0x00, 0x03, 0x0c, 0x00, 0x0c, 0x00,
  0x0b, 0x00, 0x00, 0x00, 0x00, 0x00, 0x04, 0x00, 0x0c, 0x00, 0x00, 0x00,
  0x16, 0x00, 0x00, 0x00, 0x00, 0x00, 0x00, 0x16
};
unsigned int trained_tflite_len = 6056;

#endif // _EI_CLASSIFIER_TFLITE_TRAINED_H_

